<unk>	0
<s>	0
</s>	0
<pad>	0
\frac	0
\mathrm	0
\right	0
\left	0
\mathbf	0
\partial	0
\prime	0
\alpha	0
\mu	0
\begin	0
\end	0
\sum	0
\pi	0
\mathcal	0
\theta	0
\omega	0
\hat	0
\lambda	0
\sigma	0
\beta	0
\int	0
\gamma	0
\delta	0
\phi	0
\rho	0
\nu	0
\sqrt	0
\tau	0
\Delta	0
\bar	0
\rangle	0
\tilde	0
\boldsymbol	0
\cdot	0
\mathbb	0
\eta	0
\psi	0
\infty	0
\epsilon	0
\xi	0
\langle	0
\vec	0
\quad	0
\operatorname	0
\nabla	0
\Omega	0
\Gamma	0
\times	0
\in	0
\varepsilon	0
\cal	0
\varphi	0
\kappa	0
\ell	0
\sin	0
\overline	0
\cos	0
\leq	0
\mathit	0
\big	0
\pm	0
\Phi	0
\Big	0
\dot	0
\chi	0
\Lambda	0
\zeta	0
\qquad	0
\dagger	0
\to	0
\Psi	0
\rightarrow	0
\mathfrak	0
\cdots	0
\exp	0
\mathsf	0
\sim	0
\equiv	0
\ln	0
\approx	0
\vert	0
\widetilde	0
\hbar	0
\log	0
\Sigma	0
\textbf	0
\ldots	0
\bigg	0
\mathscr	0
\widehat	0
\otimes	0
\geq	0
\mathtt	0
\perp	0
\dots	0
\prod	0
\Pi	0
\textrm	0
\le	0
\circ	0
\Theta	0
\ast	0
\ensuremath	0
\displaystyle	0
\neq	0
\mid	0
\simeq	0
\wedge	0
\underline	0
\Vert	0
\star	0
\parallel	0
\vartheta	0
\vdots	0
\Bigg	0
\forall	0
\pmb	0
\top	0
\uparrow	0
\tan	0
\bigr	0
\bigl	0
\propto	0
\dag	0
\ge	0
\binom	0
\cosh	0
\sinh	0
\stackrel	0
\Bigr	0
\cap	0
\rVert	0
\Bigl	0
\downarrow	0
\ll	0
\biggr	0
\lesssim	0
\underbrace	0
\oplus	0
\biggl	0
\ddot	0
\setminus	0
\textstyle	0
\mp	0
\cup	0
\Xi	0
\Tilde	0
\lvert	0
\overset	0
\mapsto	0
\check	0
\rvert	0
\lVert	0
\varrho	0
\boldmath	0
\iota	0
\textsc	0
\Bar	0
\gg	0
\longrightarrow	0
\ddots	0
\textup	0
\oint	0
\textnormal	0
\subset	0
\bot	0
\Rightarrow	0
\scriptscriptstyle	0
\intd	0
\leftrightarrow	0
\bullet	0
\rfloor	0
\leqslant	0
\underset	0
\cot	0
\lfloor	0
\leftarrow	0
\tiny	0
\cfrac	0
\phantom	0
\cong	0
\Re	0
\arctan	0
\textit	0
\scriptstyle	0
\overrightarrow	0
\odot	0
\subseteq	0
\imath	0
\Upsilon	0
\scriptsize	0
\iint	0
\lbrace	0
\upsilon	0
\triangle	0
\ne	0
\limits	0
\land	0
\Im	0
\colon	0
\rbrace	0
\slash	0
\not	0
\texttt	0
\sf	0
\exists	0
\varpi	0
\varsigma	0
\backslash	0
\Vec	0
\xrightarrow	0
\vee	0
\bigcup	0
\gtrsim	0
\nonumber	0
\Biggl	0
\arg	0
\d	0
\mathring	0
\Biggr	0
\mathop	0
\rceil	0
\gets	0
\Leftrightarrow	0
\substack	0
\lceil	0
\b	0
\small	0
\jmath	0
\hdots	0
\implies	0
\emptyset	0
\textsf	0
\sharp	0
\dim	0
\triangleq	0
\lbrack	0
\calL	0
\bigoplus	0
\tt	0
\sec	0
\breve	0
\coth	0
\varkappa	0
\partialx	0
\geqslant	0
\bmod	0
\mathopen	0
\neg	0
\angle	0
\mathclose	0
\calD	0
\atop	0
\lor	0
\pmod	0
\arcsin	0
\vphantom	0
\wp	0
\bgroup	0
\aftergroup	0
\egroup	0
\intercal	0
\l	0
\iff	0
\csc	0
\Dot	0
\varDelta	0
\dotsc	0
\aleph	0
\rbrack	0
\bigwedge	0
\notin	0
\Deltat	0
\Longrightarrow	0
\middle	0
\i	0
\flat	0
\P	0
\calO	0
\sp	0
\deg	0
\pii	0
\supset	0
\mathord	0
\iiint	0
\lnot	0
\overbrace	0
\lim	0
\calM	0
\emph	0
\bigotimes	0
\Longleftrightarrow	0
\bigcap	0
\L	0
\upmu	0
\prec	0
\calA	0
\enspace	0
\ker	0
\partialt	0
▁	-1.10875
▁}	-2.14387
▁{	-2.15423
_	-3.15575
^	-3.62623
{	-3.81472
}	-3.91436
▁2	-4.05065
▁)	-4.13754
▁(	-4.14022
▁1	-4.15547
▁-	-4.40724
▁=	-4.45365
▁,	-4.4634
▁+	-4.66177
▁0	-4.72858
▁i	-4.92191
▁x	-5.07965
&	-5.09572
▁t	-5.14311
(	-5.14624
)	-5.15539
▁n	-5.18707
▁r	-5.27618
▁~	-5.28751
▁k	-5.39782
\	-5.44311
▁d	-5.44643
array	-5.44827
▁.	-5.51564
▁l	-5.52326
▁a	-5.57259
▁e	-5.57462
▁m	-5.59516
▁\	-5.62389
▁3	-5.65066
▁s	-5.72626
▁p	-5.74251
▁\,	-5.75132
▁c	-5.75922
▁j	-5.80452
▁|	-5.94533
▁f	-5.99764
▁4	-6.02504
▁u	-6.06416
▁A	-6.17174
▁T	-6.19425
▁z	-6.21548
▁y	-6.21921
▁b	-6.22134
▁/	-6.24445
▁R	-6.31084
▁N	-6.31799
▁q	-6.35279
▁g	-6.35972
▁v	-6.36912
▁L	-6.38024
▁E	-6.45962
▁S	-6.48376
▁B	-6.48875
▁h	-6.49095
▁P	-6.56055
▁M	-6.60198
[	-6.60465
]	-6.60726
▁C	-6.61494
▁D	-6.6246
▁F	-6.6538
▁5	-6.68475
▁H	-6.70463
▁o	-6.71556
▁\;	-6.74213
▁I	-6.79274
▁V	-6.8059
▁]	-6.88151
▁[	-6.88286
▁X	-6.89234
▁\!	-6.96986
▁6	-6.98204
▁G	-6.98937
,	-7.03438
|	-7.04853
▁w	-7.05009
i	-7.0706
2	-7.07441
▁*	-7.09972
x	-7.12207
1	-7.1298
▁K	-7.16479
▁Q	-7.16634
▁U	-7.23188
▁8	-7.23512
r	-7.30726
-	-7.32808
=	-7.33257
▁J	-7.35726
▁\|	-7.36047
▁W	-7.37422
a	-7.40088
*	-7.42413
.	-7.42664
▁7	-7.49906
▁Z	-7.54679
k	-7.55756
+	-7.58627
▁9	-7.6441
0	-7.65459
y	-7.75319
▁;	-7.75525
▁Y	-7.77754
▁<	-7.81743
▁}}{	-7.84726
▁O	-7.85753
t	-7.89753
▁:	-7.90424
n	-7.93117
\{	-7.95938
j	-7.98038
d	-7.98775
N	-8.00279
▁>	-8.00671
A	-8.04021
e	-8.07858
▁\}	-8.14913
R	-8.16158
z	-8.23416
~	-8.27377
▁\{	-8.28129
u	-8.29815
m	-8.33772
\,	-8.34303
l	-8.43173
C	-8.45415
p	-8.45892
B	-8.46799
M	-8.47587
v	-8.48804
s	-8.49802
\}	-8.528
\|	-8.54506
T	-8.56652
c	-8.5686
3	-8.65446
▁}}	-8.67461
f	-8.68717
▁!	-8.81301
S	-8.82975
Q	-8.87981
L	-8.88779
P	-8.9103
X	-8.9153
/	-8.94705
b	-8.9831
E	-8.99246
F	-9.02115
4	-9.02968
g	-9.04956
q	-9.05546
▁\:	-9.06367
H	-9.14124
w	-9.18856
}}{	-9.22487
D	-9.2297
h	-9.25924
V	-9.288
\;	-9.36881
G	-9.38744
o	-9.39259
I	-9.39443
Z	-9.39591
;	-9.40683
>	-9.5022
<	-9.52779
\!	-9.5854
▁\%	-9.64645
5	-9.65699
{}{	-9.7123
U	-9.72329
K	-9.74485
J	-9.86631
W	-9.89883
'	-9.91101
}}	-9.9476
6	-9.96428
!	-9.98255
8	-10.2375
O	-10.3213
Y	-10.3314
7	-10.4936
:	-10.524
9	-10.6485
▁\#	-11.2525
eq	-11.4973
Ḋ	-11.5433
▁Object	-11.5927
▁Ḍ	-11.5961
objec	-11.6115
\:	-11.6312
}{	-11.8898
▁"	-12.008
{1}{2}	-12.3014
▁\/	-12.363
vdash	-12.3689
\%	-12.4156
acute	-12.4339
mit	-12.4459
footnotesize	-12.4879
smash	-12.5003
varnothing	-12.5129
thinspace	-12.516
{1}{	-12.539
arge	-12.5482
ominus	-12.5748
Hat	-12.585
ngleftrightarrow	-12.6061
varOmega	-12.6159
▁--	-12.6337
hslash	-12.6408
dagger	-12.6773
left	-12.6807
sqcup	-12.6811
iamond	-12.7037
triangleup	-12.7076
isplaylimits	-12.7388
iv	-12.7641
harpoonup	-12.7875
eqn	-12.7899
lldelimiterspace	-12.8256
ongmapsto	-12.8563
right	-12.8863
mathbin	-12.9207
sb	-12.9263
succ	-12.9474
vee	-12.9696
mathinner	-12.9744
hphantom	-12.9895
hookrightarrow	-13.0049
ssgtr	-13.0049
AA	-13.0058
dag	-13.0102
igamma	-13.0471
rightarrow	-13.0547
oxed	-13.0912
pounds	-13.0912
down	-13.1198
{~}	-13.1255
overleftarrow	-13.1256
mod	-13.1368
protect	-13.1373
▁@	-13.1421
}{2}	-13.1478
mathrel	-13.1919
varLambda	-13.1981
updownarrow	-13.2044
overleft	-13.2154
rcorner	-13.2179
times	-13.2285
complement	-13.23
oxtimes	-13.2365
varPsi	-13.2365
rlap	-13.2496
natural	-13.2629
star	-13.2629
centering	-13.2696
neq	-13.2735
normalfont	-13.3038
{}{2}	-13.3082
Uparrow	-13.3686
hfill	-13.3688
circ	-13.3761
medskip	-13.3912
▁–	-13.3916
rule	-13.3987
ongleftarrow	-13.3988
▁?	-13.4062
Downarrow	-13.4065
verb	-13.4065
eftarrow	-13.4244
leftharpoons	-13.4621
leftarrows	-13.487
⊗	-13.4953
succeq	-13.4953
ll	-13.4962
allowbreak	-13.5037
eth	-13.504
textsubscript	-13.5123
triangledown	-13.5296
upbeta	-13.5652
searrow	-13.5834
oslash	-13.5834
rtimes	-13.5948
eqno	-13.6119
▁`	-13.6401
Vdash	-13.6489
models	-13.6801
strut	-13.7006
math	-13.7197
et	-13.7235
Breve	-13.743
textmd	-13.743
}{3}	-13.7525
nsim	-13.7567
ledast	-13.7648
asymp	-13.7759
uptau	-13.7872
uprho	-13.7985
fint	-13.8104
arrow	-13.8137
curlyeq	-13.8217
corner	-13.8319
ace	-13.8334
gtrapprox	-13.8334
umpeq	-13.8453
ni	-13.8503
varPhi	-13.8574
vrule	-13.8701
approx	-13.8819
mathstrut	-13.8819
bject	-13.8937
surd	-13.8944
upalpha	-13.8944
line	-13.8944
Updownarrow	-13.9071
skip	-13.9329
sh	-13.9585
Ddot	-13.9595
\#	-13.9683
sim	-13.9849
harpoondown	-13.9866
Bbbk	-14.0005
uplambda	-14.0005
--	-14.0091
smile	-14.0146
overbar	-14.0288
woheadrightarrow	-14.0296
frown	-14.058
enskip	-14.058
iiint	-14.058
therefore	-14.058
varTheta	-14.058
uplus	-14.0582
widecheck	-14.073
less	-14.0873
gtr	-14.0878
ssapprox	-14.0881
nrightarrow	-14.1055
Object	-14.1183
squigarrow	-14.1191
vDash	-14.1192
uppercase	-14.1192
iamondsuit	-14.135
rrangle	-14.135
ddot	-14.1356
gtrless	-14.1511
mathnormal	-14.1511
owtie	-14.1511
wedge	-14.1511
Chi	-14.1512
le	-14.1559
upzeta	-14.1675
ff	-14.1705
aleth	-14.1842
int	-14.1851
ave	-14.236
dots	-14.2459
bold	-14.2538
{1}{4}	-14.2548
Omega	-14.272
nmid	-14.272
upnu	-14.272
uppi	-14.272
neqq	-14.3044
{1}	-14.3051
oxplus	-14.3093
odot	-14.3095
nleftrightarrow	-14.3104
ing	-14.3173
coprod	-14.3286
tail	-14.3286
vartriangle	-14.3381
textsl	-14.3482
succcurlyeq	-14.3482
"	-14.3654
cal	-14.3687
ref	-14.3689
gra	-14.3927
leftarrow	-14.4084
relax	-14.4094
moon	-14.4094
ral	-14.4388
dot	-14.4391
lacktriangle	-14.4778
over	-14.4814
op	-14.4944
curly	-14.4974
eqslant	-14.4974
ooparrow	-14.4974
ackprime	-14.4974
normalsize	-14.4974
thre	-14.4974
upgamma	-14.4974
upsigma	-14.4974
sqsupset	-14.4982
gtreq	-14.4986
underb	-14.4995
ownharpoon	-14.5089
upuparrows	-14.5206
Ḍ	-14.524
col	-14.5345
·	-14.5445
gcd	-14.5446
dex	-14.546
ve	-14.5526
ledcirc	-14.5688
textmu	-14.5938
varprojlim	-14.5938
nleftarrow	-14.5948
ar	-14.6385
makebox	-14.6458
sideset	-14.6458
sqcap	-14.6458
ecause	-14.6728
measuredangle	-14.6728
varinjlim	-14.6728
upharpoonright	-14.6728
leftrightarrow	-14.6787
hfil	-14.7001
amalg	-14.7292
thickspace	-14.7292
it	-14.7336
normal	-14.7586
mathchoice	-14.7586
uppsi	-14.7586
xists	-14.7586
plus	-14.7885
Subset	-14.7889
leddash	-14.7889
swarrow	-14.7889
updelta	-14.7889
xleftarrow	-14.7907
mode	-14.7919
▁’	-14.8005
sqsubset	-14.8201
oxdot	-14.8201
textsuperscript	-14.8201
upkappa	-14.8201
font	-14.8201
nLeft	-14.8344
eqq	-14.8415
mark	-14.8524
rightarrows	-14.8549
un	-14.8643
gneq	-14.8789
curvearrowright	-14.8857
gimel	-14.8857
hookleftarrow	-14.8857
rosun	-14.8857
footnote	-14.8857
nleq	-14.8857
sl	-14.8962
owndownarrows	-14.9202
underbracket	-14.9202
lacktriangleleft	-14.9202
acksimeq	-14.9202
up	-14.9461
curvearrowleft	-14.9559
nwarrow	-14.9559
textunderscore	-14.9559
cite	-14.9559
me	-14.9759
group	-14.9914
acksim	-14.993
adesuit	-14.993
hericalangle	-14.993
varlimsup	-14.993
{3}{	-15.0108
Supset	-15.0314
clubsuit	-15.0314
nRightarrow	-15.0314
nparallel	-15.0314
nsubseteq	-15.0314
×	-15.0314
ngeq	-15.0314
sseqqgtr	-15.0714
vartriangleright	-15.0714
ashv	-15.0714
rightharpoons	-15.0715
sup	-15.0724
sun	-15.0726
min	-15.0734
rec	-15.0981
ule	-15.0989
ARGE	-15.1131
heartsuit	-15.1131
oxminus	-15.1131
setminus	-15.1131
θ	-15.1131
sqsubseteq	-15.1131
Rrightarrow	-15.1158
nVdash	-15.1165
nu	-15.1207
\/	-15.1316
bar	-15.1336
ivideontimes	-15.1566
ncong	-15.1566
sseqgtr	-15.1566
◁	-15.1566
succsim	-15.1566
nsupseteq	-15.1567
nless	-15.1589
triangleleft	-15.1797
triangleright	-15.1956
twohead	-15.1996
Dash	-15.2017
ap	-15.2018
upharpoon	-15.202
aligned	-15.202
uptheta	-15.202
oin	-15.2029
all	-15.2102
Sigma	-15.2496
oiint	-15.2497
hom	-15.2499
ro	-15.2638
pre	-15.2703
eve	-15.2919
oublebarwedge	-15.2997
angle	-15.2998
ppercase	-15.3519
textcent	-15.3523
upomega	-15.3523
−	-15.3523
ake	-15.3555
limits	-15.4078
upphi	-15.4078
varGamma	-15.4078
with	-15.4078
ect	-15.4089
and	-15.4134
sc	-15.443
▁Γ	-15.446
em	-15.4631
mathpalette	-15.4667
upSigma	-15.4667
dent	-15.4667
}{4}	-15.4914
$	-15.5292
epth	-15.5292
raisebox	-15.5292
⁄	-15.5292
sel	-15.5304
mil	-15.5313
or	-15.5415
om	-15.5558
▁0.1	-15.5594
▁°	-15.5664
triangle	-15.5958
prime	-15.5958
{4}{3}	-15.5963
els	-15.6214
iagdown	-15.6673
nobreakspace	-15.6673
tchfork	-15.6673
∫	-15.6673
tim	-15.6799
ercase	-15.7442
textcircled	-15.7442
textless	-15.7442
varXi	-15.7442
varliminf	-15.7442
ss	-15.7774
Gamma	-15.8275
heck	-15.8275
textlangle	-15.8275
textrangle	-15.8275
varSigma	-15.8275
erle	-15.8275
lacktriangledown	-15.8275
meds	-15.8279
pace	-15.8307
rel	-15.8317
max	-15.8401
ver	-15.8466
own	-15.8716
we	-15.9014
isplay	-15.9184
allow	-15.9184
copyright	-15.9184
textgreater	-15.9184
breaks	-15.9184
Huge	-15.9185
ow	-15.9276
epsilon	-15.9421
str	-15.9573
Gam	-15.9576
succn	-15.9623
ul	-16.0079
under	-16.0099
mathsection	-16.0184
textregistered	-16.0184
upeta	-16.0184
upOmega	-16.0184
shape	-16.0186
texte	-16.0192
hss	-16.0193
ex	-16.1295
textper	-16.1295
е	-16.1295
textbar	-16.1296
time	-16.1301
rack	-16.1307
VdashA	-16.135
ma	-16.1395
{8}	-16.1936
ring	-16.2124
{2}{	-16.2156
{3}	-16.2243
{2}	-16.2323
map	-16.2393
`	-16.2424
dash	-16.2541
slash	-16.2541
agon	-16.2545
mathparagraph	-16.2545
↦	-16.2545
∘	-16.2545
∞	-16.2545
varPi	-16.2546
iag	-16.2602
@	-16.2804
ack	-16.2927
nV	-16.3195
▁\'	-16.3593
fte	-16.3703
gn	-16.3745
uparrows	-16.3974
textdegree	-16.3974
varUpsilon	-16.3974
é	-16.3974
г	-16.3974
д	-16.3974
footnotemark	-16.3974
hspace	-16.3974
psi	-16.4015
rgroup	-16.4039
lse	-16.4082
eta	-16.4258
lli	-16.4304
text	-16.4383
sk	-16.4411
▁\`	-16.4555
–	-16.5544
ć	-16.5641
č	-16.5641
ε	-16.5641
ν	-16.5641
φ	-16.5641
⊘	-16.5641
ject	-16.5649
ebox	-16.5692
?	-16.5707
th	-16.6687
en	-16.7541
wr	-16.7566
hu	-16.7576
mp	-16.7583
rightharpoon	-16.7636
fill	-16.7639
upDelta	-16.7641
λ	-16.7641
ω	-16.7641
и	-16.7641
≅	-16.7641
⋅	-16.7641
back	-16.827
an	-16.8297
fi	-16.8357
▁\_	-16.8934
overwithdelims	-17.0141
±	-17.0141
Δ	-17.0141
Ω	-17.0141
η	-17.0141
σ	-17.0141
—	-17.0141
≤	-17.0141
upvar	-17.0141
mho	-17.0151
uge	-17.0172
the	-17.02
{4}{	-17.0496
eri	-17.0586
ter	-17.0791
bracket	-17.3474
noindent	-17.3474
raise	-17.3474
£	-17.3474
μ	-17.3474
ο	-17.3474
π	-17.3474
χ	-17.3474
ό	-17.3474
∑	-17.3474
scshape	-17.3474
upepsilon	-17.3474
▁̈	-17.3474
nsimeq	-17.3478
ize	-17.3644
ase	-17.3654
tag	-17.3667
gr	-17.4426
{4}	-17.5785
▁\&	-17.6695
ra	-17.7354
ame	-17.7474
ke	-17.8288
box	-17.8345
{5}{	-17.8447
withdelims	-17.8474
¡	-17.8474
¥	-17.8474
à	-17.8474
á	-17.8474
ö	-17.8474
́	-17.8474
δ	-17.8474
τ	-17.8474
υ	-17.8474
ψ	-17.8474
Д	-17.8474
а	-17.8474
ж	-17.8474
н	-17.8474
ч	-17.8474
∈	-17.8474
⟨	-17.8474
⟩	-17.8474
万	-17.8474
tion	-17.8474
agge	-17.848
textre	-17.8507
oot	-17.8522
tch	-17.8654
ho	-17.8667
squ	-17.8766
se	-17.8792
scr	-17.8887
is	-17.9342
rray	-17.9484
{9}{	-17.9548
mathr	-17.9652
eci	-17.9724
dleft	-17.9954
lefta	-18.1111
st	-18.1304
ox	-18.1741
Nu	-18.1854
cm	-18.2209
’	-18.3584
ef	-18.3707
nn	-18.3752
ou	-18.418
us	-18.4512
{~}{	-18.4614
he	-18.5451
pt	-18.5717
lack	-18.641
eftrightarrow	-18.6504
{7}{	-18.7511
ri	-18.7976
ob	-18.8179
▁Objec	-18.8449
reak	-18.8472
break	-18.8473
center	-18.8474
®	-18.8474
Å	-18.8474
Æ	-18.8474
ä	-18.8474
å	-18.8474
ð	-18.8474
̄	-18.8474
̧	-18.8474
α	-18.8474
β	-18.8474
ι	-18.8474
κ	-18.8474
Н	-18.8474
‐	-18.8474
“	-18.8474
ines	-18.8475
thin	-18.8475
space	-18.8482
sub	-18.8602
ote	-18.8741
phi	-18.8841
ent	-18.9171
rcl	-18.9753
0.1	-18.9852
ise	-18.9938
ee	-18.9961
ng	-18.9982
ay	-19.0282
el	-19.0627
qua	-19.156
{7}	-19.2904
um	-19.2926
▁\'{	-19.401
tw	-19.4018
in	-19.5136
eftarrown	-19.5426
Γ	-19.6222
eqx	-19.7182
°	-19.9391
̈	-20.0818
#	-20.0819
%	-20.082
seq	-20.082
